<pad>	0
<unk>	0
▁t	-0
he	-1
▁a	-2
in	-3
▁s	-4
▁the	-5
▁w	-6
▁o	-7
re	-8
ha	-9
nd	-10
er	-11
▁b	-12
ed	-13
ou	-14
▁m	-15
is	-16
ing	-17
it	-18
▁c	-19
▁f	-20
▁of	-21
en	-22
on	-23
le	-24
▁and	-25
▁in	-26
or	-27
▁h	-28
▁to	-29
ll	-30
ar	-31
▁d	-32
▁p	-33
es	-34
an	-35
at	-36
as	-37
▁l	-38
om	-39
▁he	-40
▁I	-41
▁n	-42
hat	-43
ow	-44
▁ha	-45
▁g	-46
▁th	-47
ut	-48
ly	-49
▁be	-50
st	-51
▁e	-52
im	-53
ic	-54
▁that	-55
gh	-56
▁“	-57
▁y	-58
▁u	-59
se	-60
id	-61
▁his	-62
ot	-63
▁it	-64
▁on	-65
ld	-66
ver	-67
▁was	-68
ve	-69
et	-70
ent	-71
▁st	-72
al	-73
ith	-74
ac	-75
ay	-76
▁with	-77
ad	-78
ir	-79
ght	-80
▁as	-81
▁r	-82
▁se	-83
ur	-84
▁T	-85
▁re	-86
▁wh	-87
▁for	-88
▁you	-89
ain	-90
▁we	-91
oo	-92
ion	-93
▁at	-94
il	-95
▁an	-96
ke	-97
ce	-98
her	-99
▁is	-100
am	-101
▁A	-102
ter	-103
ight	-104
▁S	-105
▁all	-106
▁him	-107
▁me	-108
▁fr	-109
ore	-110
▁su	-111
ch	-112
if	-113
all	-114
▁B	-115
ro	-116
▁sh	-117
qu	-118
▁sa	-119
and	-120
▁up	-121
ome	-122
▁not	-123
▁so	-124
▁had	-125
ous	-126
hale	-127
▁W	-128
▁from	-129
▁but	-130
ss	-131
ill	-132
▁H	-133
▁this	-134
red	-135
ul	-136
ag	-137
ec	-138
ri	-139
ap	-140
▁v	-141
em	-142
ould	-143
▁C	-144
ast	-145
ble	-146
ard	-147
ant	-148
.”	-149
▁li	-150
▁by	-151
▁The	-152
▁whe	-153
▁my	-154
▁le	-155
▁con	-156
out	-157
▁whale	-158
art	-159
est	-160
▁sp	-161
▁k	-162
ong	-163
ip	-164
▁int	-165
▁there	-166
ers	-167
ound	-168
▁one	-169
▁out	-170
ess	-171
▁man	-172
▁or	-173
▁her	-174
▁un	-175
▁M	-176
ck	-177
▁al	-178
ook	-179
own	-180
▁G	-181
el	-182
▁do	-183
ough	-184
ort	-185
▁were	-186
▁have	-187
od	-188
ol	-189
un	-190
ost	-191
us	-192
um	-193
▁ne	-194
▁ab	-195
ust	-196
▁some	-197
▁D	-198
,”	-199
han	-200
ak	-201
▁N	-202
very	-203
ose	-204
lf	-205
ame	-206
ell	-207
ig	-208
one	-209
ack	-210
▁de	-211
ted	-212
pp	-213
▁kn	-214
▁over	-215
▁ex	-216
ind	-217
▁com	-218
hing	-219
▁said	-220
▁j	-221
ra	-222
▁into	-223
▁like	-224
▁F	-225
tain	-226
▁P	-227
▁But	-228
ther	-229
▁they	-230
ich	-231
▁no	-232
▁when	-233
ide	-234
ood	-235
tle	-236
▁ag	-237
ate	-238
▁who	-239
▁ye	-240
▁then	-241
able	-242
by	-243
▁bo	-244
▁which	-245
ist	-246
▁she	-247
ue	-248
ord	-249
▁go	-250
▁af	-251
▁now	-252
▁He	-253
▁more	-254
our	-255
▁them	-256
ite	-257
hed	-258
▁their	-259
ep	-260
ven	-261
▁what	-262
ive	-263
ally	-264
▁any	-265
ation	-266
▁are	-267
▁pre	-268
ats	-269
▁tr	-270
▁tim	-271
?”	-272
▁ship	-273
op	-274
ious	-275
▁if	-276
ure	-277
▁ar	-278
ge	-279
ity	-280
▁down	-281
▁pl	-282
▁upon	-283
▁bl	-284
self	-285
ew	-286
reat	-287
▁other	-288
▁about	-289
▁would	-290
way	-291
▁look	-292
ick	-293
ies	-294
ct	-295
▁St	-296
▁qu	-297
ine	-298
▁been	-299
wn	-300
▁old	-301
▁hand	-302
ass	-303
▁ro	-304
urn	-305
ish	-306
▁tw	-307
ace	-308
ink	-309
▁seem	-310
▁again	-311
▁har	-312
▁"	-313
ile	-314
ings	-315
▁us	-316
▁lit	-317
fore	-318
ie	-319
▁pro	-320
per	-321
ved	-322
nder	-323
▁sha	-324
th	-325
age	-326
▁fl	-327
ake	-328
▁can	-329
▁did	-330
▁little	-331
▁O	-332
ull	-333
po	-334
ving	-335
▁L	-336
equ	-337
▁cl	-338
ud	-339
less	-340
▁after	-341
▁br	-342
ting	-343
▁off	-344
atsby	-345
ought	-346
ree	-347
▁It	-348
orn	-349
▁E	-350
▁Gatsby	-351
▁J	-352
ars	-353
are	-354
ling	-355
ward	-356
▁fe	-357
▁time	-358
oun	-359
uck	-360
▁po	-361
▁your	-362
ark	-363
ance	-364
▁str	-365
▁thr	-366
▁im	-367
▁see	-368
▁gr	-369
ered	-370
▁say	-371
pt	-372
ness	-373
▁co	-374
ated	-375
ab	-376
▁am	-377
eg	-378
▁long	-379
aptain	-380
▁before	-381
ice	-382
▁en	-383
▁sw	-384
▁way	-385
ect	-386
▁sea	-387
▁know	-388
▁ey	-389
au	-390
▁sm	-391
▁back	-392
▁only	-393
▁too	-394
▁wor	-395
▁part	-396
▁very	-397
▁such	-398
▁could	-399
ub	-400
▁per	-401
▁these	-402
▁gl	-403
▁than	-404
ild	-405
▁sc	-406
ais	-407
▁though	-408
▁And	-409
▁will	-410
▁mad	-411
▁here	-412
ried	-413
ff	-414
ry	-415
hab	-416
▁two	-417
▁those	-418
▁Q	-419
▁every	-420
▁cha	-421
ire	-422
▁its	-423
▁wat	-424
ves	-425
cc	-426
ft	-427
▁turn	-428
!”	-429
uch	-430
▁sl	-431
▁great	-432
omet	-433
▁day	-434
▁never	-435
▁Ahab	-436
▁seemed	-437
sp	-438
▁most	-439
irst	-440
▁ad	-441
▁head	-442
▁Tom	-443
▁where	-444
led	-445
aisy	-446
▁last	-447
▁still	-448
anc	-449
▁own	-450
▁dis	-451
equeg	-452
ueequeg	-453
▁vo	-454
ach	-455
ove	-456
▁men	-457
▁comp	-458
▁sail	-459
▁came	-460
▁somet	-461
▁rem	-462
▁yet	-463
▁must	-464
▁thought	-465
sh	-466
ful	-467
ress	-468
▁how	-469
ather	-470
▁Daisy	-471
▁night	-472
▁Y	-473
ber	-474
▁In	-475
▁ch	-476
▁through	-477
ng	-478
ock	-479
▁ob	-480
ang	-481
ife	-482
ise	-483
ment	-484
▁cr	-485
▁has	-486
▁even	-487
▁made	-488
▁much	-489
▁first	-490
▁pr	-491
▁think	-492
ions	-493
▁Queequeg	-494
the	-495
▁Th	-496
▁ho	-497
▁car	-498
▁himself	-499
▁cont	-500
▁three	-501
▁our	-502
ps	-503
▁fo	-504
▁R	-505
ever	-506
▁ind	-507
▁white	-508
cl	-509
ren	-510
iz	-511
ks	-512
ath	-513
ign	-514
ence	-515
ked	-516
▁call	-517
ows	-518
most	-519
▁away	-520
▁just	-521
ian	-522
▁mat	-523
men	-524
▁harpo	-525
▁might	-526
▁pe	-527
▁eyes	-528
▁get	-529
▁Captain	-530
iv	-531
act	-532
▁bet	-533
gg	-534
▁ever	-535
ary	-536
end	-537
ody	-538
▁ke	-539
▁dec	-540
▁des	-541
▁being	-542
▁while	-543
ty	-544
▁Mr	-545
ular	-546
▁mom	-547
▁went	-548
▁moment	-549
▁come	-550
▁good	-551
hen	-552
ils	-553
rew	-554
▁bec	-555
ily	-556
ouse	-557
▁don	-558
▁sort	-559
▁under	-560
pl	-561
les	-562
ory	-563
man	-564
ible	-565
▁For	-566
▁may	-567
▁light	-568
ors	-569
pen	-570
▁beg	-571
other	-572
▁looked	-573
▁something	-574
ied	-575
▁well	-576
▁wind	-577
▁world	-578
▁should	-579
ave	-580
igh	-581
ubb	-582
▁same	-583
▁side	-584
ts	-585
▁round	-586
mer	-587
ped	-588
here	-589
land	-590
▁app	-591
▁thing	-592
▁boat	-593
ib	-594
arb	-595
den	-596
king	-597
aking	-598
▁whales	-599
og	-600
▁(	-601
▁acc	-602
▁pres	-603
ial	-604
▁comm	-605
▁cons	-606
▁tell	-607
▁Whale	-608
os	-609
▁want	-610
▁house	-611
ons	-612
▁wha	-613
ern	-614
ond	-615
▁stand	-616
een	-617
ause	-618
▁bel	-619
▁pass	-620
▁got	-621
▁mar	-622
hes	-623
."	-624
hy	-625
▁bot	-626
▁seen	-627
▁against	-628
▁dr	-629
▁ent	-630
▁imp	-631
▁inv	-632
▁Stubb	-633
▁found	-634
▁many	-635
▁among	-636
▁without	-637
▁_	-638
▁ins	-639
▁life	-640
▁going	-641
▁small	-642
air	-643
der	-644
▁wa	-645
ched	-646
ount	-647
▁sub	-648
ating	-649
▁inst	-650
▁land	-651
▁room	-652
▁right	-653
med	-654
head	-655
▁There	-656
▁toward	-657
ical	-658
▁end	-659
▁rep	-660
▁sle	-661
erm	-662
ently	-663
▁almost	-664
ele	-665
▁inc	-666
▁door	-667
▁half	-668
▁things	-669
▁face	-670
ertain	-671
ah	-672
int	-673
ced	-674
oon	-675
▁name	-676
▁open	-677
▁word	-678
▁far	-679
▁hands	-680
▁water	-681
az	-682
li	-683
ail	-684
▁bed	-685
▁sur	-686
▁along	-687
ne	-688
ans	-689
▁She	-690
▁bro	-691
▁supp	-692
av	-693
sel	-694
read	-695
▁each	-696
▁heard	-697
ople	-698
ross	-699
ways	-700
▁dist	-701
▁full	-702
▁once	-703
▁heart	-704
▁turned	-705
ee	-706
▁em	-707
▁inf	-708
ho	-709
ase	-710
ared	-711
owed	-712
▁saw	-713
▁shar	-714
ict	-715
iness	-716
▁hard	-717
▁harpoone	-718
TE	-719
ten	-720
▁sn	-721
▁arm	-722
▁set	-723
▁sun	-724
ingly	-725
▁didn	-726
▁young	-727
ale	-728
▁God	-729
▁sec	-730
▁sil	-731
▁ste	-732
▁war	-733
iff	-734
▁let	-735
thing	-736
ener	-737
▁cur	-738
▁cried	-739
▁start	-740
HA	-741
so	-742
iss	-743
uff	-744
▁air	-745
▁pur	-746
ering	-747
▁take	-748
ations	-749
▁inter	-750
▁nothing	-751
..	-752
ens	-753
ning	-754
▁che	-755
▁rest	-756
▁around	-757
ash	-758
ute	-759
▁New	-760
▁gir	-761
▁fore	-762
TER	-763
You	-764
ung	-765
▁hour	-766
▁years	-767
▁people	-768
▁because	-769
oy	-770
ual	-771
▁mon	-772
ix	-773
ont	-774
ump	-775
▁lo	-776
▁sk	-777
chan	-778
ened	-779
▁called	-780
▁another	-781
ask	-782
iar	-783
irc	-784
ool	-785
und	-786
▁At	-787
ific	-788
ures	-789
▁att	-790
ished	-791
ucket	-792
▁dark	-793
▁sleep	-794
▁times	-795
▁whaling	-796
HAP	-797
▁Ch	-798
▁So	-799
▁el	-800
dden	-801
reen	-802
▁CHAP	-803
▁knew	-804
orning	-805
▁CHAPTER	-806
▁certain	-807
te	-808
get	-809
▁As	-810
▁wr	-811
▁dra	-812
ances	-813
▁make	-814
orm	-815
ited	-816
ters	-817
▁low	-818
ching	-819
ellow	-820
ition	-821
▁They	-822
▁chan	-823
▁does	-824
als	-825
ween	-826
▁min	-827
▁sat	-828
▁place	-829
haps	-830
ying	-831
▁left	-832
▁began	-833
▁sudden	-834
▁between	-835
xt	-836
▁‘	-837
ged	-838
vent	-839
▁hel	-840
▁res	-841
▁voy	-842
ained	-843
aring	-844
owing	-845
▁girl	-846
▁thou	-847
▁took	-848
▁stood	-849
▁voice	-850
▁whole	-851
antucket	-852
aw	-853
▁His	-854
▁nat	-855
▁new	-856
▁feel	-857
▁wild	-858
▁Nantucket	-859
ye	-860
What	-861
▁put	-862
ildad	-863
▁circ	-864
arbuck	-865
▁always	-866
ner	-867
ange	-868
▁few	-869
▁lar	-870
▁ter	-871
ilson	-872
ither	-873
,"	-874
ject	-875
▁exp	-876
▁eye	-877
▁run	-878
▁tou	-879
▁crew	-880
▁feet	-881
▁four	-882
▁mean	-883
▁Bildad	-884
▁Wilson	-885
▁captain	-886
eleg	-887
equod	-888
ordan	-889
▁both	-890
▁cann	-891
▁conf	-892
▁told	-893
▁gener	-894
▁morning	-895
▁Starbuck	-896
app	-897
ope	-898
▁fam	-899
ually	-900
▁deck	-901
▁stre	-902
▁till	-903
▁Jordan	-904
▁Pequod	-905
bo	-906
The	-907
ane	-908
ene	-909
ere	-910
iet	-911
oul	-912
▁ac	-913
▁bus	-914
▁spe	-915
▁dead	-916
▁foll	-917
▁high	-918
▁soon	-919
▁black	-920
▁sight	-921
It	-922
▁te	-923
outh	-924
▁cor	-925
▁del	-926
▁read	-927
iously	-928
▁Peleg	-929
▁matter	-930
ug	-931
vi	-932
ken	-933
ired	-934
▁fin	-935
▁reg	-936
▁That	-937
▁find	-938
▁hear	-939
▁seas	-940
▁We	-941
that	-942
▁act	-943
▁cra	-944
▁flo	-945
▁leg	-946
▁Then	-947
▁pers	-948
▁present	-949
its	-950
oud	-951
▁Wh	-952
▁aw	-953
▁mo	-954
iend	-955
▁sin	-956
onder	-957
▁days	-958
▁deep	-959
▁happ	-960
▁hold	-961
▁home	-962
▁mind	-963
▁looking	-964
sw	-965
ank	-966
▁lay	-967
▁When	-968
▁line	-969
▁perhaps	-970
▁strange	-971
▁Fl	-972
▁ir	-973
ates	-974
ides	-975
tern	-976
▁bre	-977
▁dri	-978
▁hat	-979
isher	-980
▁What	-981
▁soul	-982
▁sound	-983
▁rather	-984
▁V	-985
▁’	-986
amp	-987
ets	-988
ult	-989
ident	-990
▁body	-991
▁fish	-992
▁sperm	-993
▁table	-994
▁myself	-995
arn	-996
eed	-997
enc	-998
ief	-999
▁“‘	-1000
ably	-1001
itud	-1002
ster	-1003
▁Jon	-1004
▁Now	-1005
▁ass	-1006
▁col	-1007
▁voyage	-1008
be	-1009
ru	-1010
▁K	-1011
ately	-1012
eness	-1013
ously	-1014
▁keep	-1015
▁friend	-1016
▁business	-1017
but	-1018
oke	-1019
oub	-1020
ring	-1021
▁pol	-1022
▁exce	-1023
▁give	-1024
▁sing	-1025
▁Jonah	-1026
▁comple	-1027
▁towards	-1028
eng	-1029
how	-1030
▁On	-1031
eren	-1032
iled	-1033
ured	-1034
▁add	-1035
▁hor	-1036
▁lat	-1037
▁tal	-1038
▁wal	-1039
ality	-1040
▁This	-1041
▁answ	-1042
▁cour	-1043
▁next	-1044
▁known	-1045
▁large	-1046
▁super	-1047
▁itself	-1048
▁harpooneer	-1049
umb	-1050
▁(_	-1051
ages	-1052
body	-1053
imes	-1054
pped	-1055
▁dro	-1056
▁pec	-1057
▁conc	-1058
▁poss	-1059
gether	-1060
▁Flask	-1061
▁together	-1062
elt	-1063
ler	-1064
▁gi	-1065
akes	-1066
iver	-1067
▁aff	-1068
▁hun	-1069
▁sav	-1070
▁unc	-1071
ected	-1072
▁care	-1073
▁mast	-1074
▁contin	-1075
arr	-1076
▁sit	-1077
anded	-1078
antly	-1079
▁sign	-1080
aker	-1081
▁cab	-1082
▁fur	-1083
▁rel	-1084
▁tre	-1085
▁unt	-1086
aving	-1087
ising	-1088
uliar	-1089
▁live	-1090
▁prof	-1091
▁roll	-1092
ically	-1093
▁enough	-1094
▁peculiar	-1095
—”	-1096
ilt	-1097
▁vi	-1098
▁dem	-1099
▁hum	-1100
▁ide	-1101
▁lau	-1102
▁ser	-1103
ially	-1104
ities	-1105
icular	-1106
▁creat	-1107
▁sport	-1108
He	-1109
oc	-1110
ier	-1111
ins	-1112
tom	-1113
vel	-1114
▁la	-1115
arth	-1116
ason	-1117
▁boy	-1118
▁cap	-1119
▁rec	-1120
▁squ	-1121
▁vis	-1122
▁also	-1123
▁pull	-1124
▁cabin	-1125
▁better	-1126
mb	-1127
ued	-1128
uth	-1129
▁es	-1130
ging	-1131
ined	-1132
like	-1133
ship	-1134
▁mid	-1135
▁best	-1136
▁book	-1137
▁char	-1138
▁mark	-1139
▁true	-1140
undred	-1141
▁boats	-1142
▁short	-1143
pr	-1144
▁gu	-1145
▁ph	-1146
clud	-1147
ream	-1148
ully	-1149
▁oce	-1150
▁ret	-1151
▁sim	-1152
stand	-1153
▁felt	-1154
▁board	-1155
▁quest	-1156
▁wonder	-1157
sed	-1158
aken	-1159
where	-1160
▁five	-1161
ention	-1162
▁asked	-1163
▁hundred	-1164
?"	-1165
res	-1166
▁Mo	-1167
aces	-1168
aint	-1169
▁mur	-1170
antic	-1171
▁form	-1172
▁gone	-1173
▁slow	-1174
▁spec	-1175
selves	-1176
▁alone	-1177
▁quick	-1178
▁whose	-1179
▁fisher	-1180
▁anything	-1181
to	-1182
part	-1183
ural	-1184
▁Ind	-1185
▁You	-1186
▁cle	-1187
▁ext	-1188
▁met	-1189
ement	-1190
illed	-1191
▁fact	-1192
▁port	-1193
▁stri	-1194
▁used	-1195
▁least	-1196
▁aftern	-1197
▁indeed	-1198
▁person	-1199
▁however	-1200
▁No	-1201
▁jo	-1202
ient	-1203
perm	-1204
side	-1205
▁abs	-1206
▁cut	-1207
▁lad	-1208
▁swe	-1209
entle	-1210
ively	-1211
meric	-1212
▁love	-1213
▁near	-1214
▁shad	-1215
▁step	-1216
▁sure	-1217
▁thus	-1218
▁close	-1219
▁green	-1220
▁mouth	-1221
▁often	-1222
▁Americ	-1223
▁consid	-1224
co	-1225
wh	-1226
ork	-1227
fter	-1228
ized	-1229
ught	-1230
▁How	-1231
▁why	-1232
fully	-1233
spect	-1234
▁cold	-1235
▁lean	-1236
▁mate	-1237
▁terr	-1238
▁whis	-1239
▁ships	-1240
▁suddenly	-1241
▁whalemen	-1242
No	-1243
ift	-1244
ime	-1245
vil	-1246
wing	-1247
▁Nor	-1248
▁nor	-1249
▁occ	-1250
▁sum	-1251
▁wom	-1252
▁Dick	-1253
▁gave	-1254
▁White	-1255
▁circum	-1256
▁gentle	-1257
▁standing	-1258
▁afternoon	-1259
Oh	-1260
_)	-1261
ph	-1262
oes	-1263
aced	-1264
ping	-1265
▁cal	-1266
▁ere	-1267
▁exc	-1268
▁hur	-1269
mon	-1270
ches	-1271
▁bur	-1272
▁ele	-1273
▁With	-1274
▁doub	-1275
▁fine	-1276
▁less	-1277
▁poor	-1278
▁earth	-1279
▁offic	-1280
▁sever	-1281
▁shall	-1282
▁until	-1283
▁living	-1284
▁reason	-1285
▁savage	-1286
▁particular	-1287
br	-1288
ny	-1289
ape	-1290
olf	-1291
ots	-1292
▁My	-1293
aven	-1294
▁ref	-1295
▁dire	-1296
▁done	-1297
▁idea	-1298
▁play	-1299
▁real	-1300
▁seam	-1301
▁stra	-1302
erable	-1303
▁Sperm	-1304
▁death	-1305
▁order	-1306
▁since	-1307
▁cannot	-1308
▁common	-1309
▁object	-1310
▁second	-1311
▁within	-1312
▁several	-1313
▁complete	-1314
▁sometimes	-1315
ior	-1316
Well	-1317
ming	-1318
▁bes	-1319
▁mer	-1320
ached	-1321
anger	-1322
athan	-1323
tered	-1324
ushed	-1325
▁Moby	-1326
▁cook	-1327
▁diff	-1328
▁need	-1329
▁pict	-1330
▁thee	-1331
▁ocean	-1332
▁having	-1333
▁minute	-1334
▁slowly	-1335
ef	-1336
▁1	-1337
...	-1338
eel	-1339
lly	-1340
ret	-1341
▁Is	-1342
hind	-1343
ines	-1344
ixed	-1345
ored	-1346
ower	-1347
room	-1348
▁All	-1349
▁cas	-1350
▁fre	-1351
▁hon	-1352
▁ple	-1353
inted	-1354
ments	-1355
▁case	-1356
▁fell	-1357
▁main	-1358
▁pret	-1359
▁count	-1360
▁front	-1361
▁remem	-1362
viathan	-1363
▁behind	-1364
▁harpoon	-1365
.’	-1366
Th	-1367
—“	-1368
ipe	-1369
ense	-1370
▁Eng	-1371
▁bow	-1372
▁def	-1373
▁ham	-1374
▁mag	-1375
ction	-1376
ength	-1377
▁West	-1378
▁kept	-1379
▁kind	-1380
▁purp	-1381
▁sent	-1382
▁wasn	-1383
▁seems	-1384
▁sharp	-1385
▁surpr	-1386
▁entire	-1387
▁waters	-1388
▁general	-1389
OR	-1390
ma	-1391
eth	-1392
pec	-1393
rig	-1394
ibly	-1395
kilt	-1396
oney	-1397
▁Mrs	-1398
▁adv	-1399
▁eff	-1400
▁mot	-1401
▁obs	-1402
aught	-1403
ended	-1404
▁	-1405
e	-1406
t	-1407
a	-1408
o	-1409
n	-1410
i	-1411
s	-1412
h	-1413
r	-1414
l	-1415
d	-1416
u	-1417
m	-1418
w	-1419
c	-1420
g	-1421
f	-1422
y	-1423
,	-1424
p	-1425
b	-1426
.	-1427
v	-1428
k	-1429
I	-1430
’	-1431
;	-1432
“	-1433
”	-1434
T	-1435
-	-1436
A	-1437
S	-1438
—	-1439
W	-1440
H	-1441
B	-1442
!	-1443
q	-1444
?	-1445
x	-1446
C	-1447
j	-1448
M	-1449
G	-1450
N	-1451
D	-1452
"	-1453
P	-1454
O	-1455
F	-1456
z	-1457
E	-1458
L	-1459
_	-1460
R	-1461
Y	-1462
J	-1463
'	-1464
Q	-1465
:	-1466
‘	-1467
(	-1468
)	-1469
K	-1470
V	-1471
0	-1472
1	-1473
U	-1474
*	-1475
5	-1476
3	-1477
2	-1478
6	-1479
8	-1480
4	-1481
7	-1482
9	-1483
é	-1484
Z	-1485
æ	-1486
⁠	-1487
X	-1488
–	-1489
$	-1490
[	-1491
]	-1492
è	-1493
œ	-1494
£	-1495
ç	-1496
ô	-1497